//Entry 0
0111111111111101 
//Entry 1
0101011100111100 
//Entry 2
0111110000011010 
//Entry 3
1001011101011110 
//Entry 4
1000111111111101 
//Entry 5
0101010011100000 
//Entry 6
1011010100011110 
//Entry 7
1010001101111110 
//Entry 8
1011101111011011 
//Entry 9
1001011011111101 
//Entry 10
0100111000100000 
//Entry 11
0101010001011110 
//Entry 12
0100101011100001 
//Entry 13
0101010101011011 
//Entry 14
0110010010011101 
//Entry 15
1001011111111110 
//Entry 16
1000100100100000 
//Entry 17
1001101010011110 
//Entry 18
1010101011011110 
//Entry 19
0100010110111100 
//Entry 20
0111011011111110 
//Entry 21
0110001011011110 
//Entry 22
0100011000011011 
//Entry 23
0111000010111110 
//Entry 24
0100011011010111 
//Entry 25
0111010111111110 
//Entry 26
1010100100011101 
//Entry 27
0101100110000001 
//Entry 28
1010011111100000 
//Entry 29
1000000101111100 
//Entry 30
1011010101011101 
//Entry 31
0100111111011100 
//Entry 32
1010011001000000 
//Entry 33
1010101001100001 
//Entry 34
0110000110111110 
//Entry 35
0101100010111111 
//Entry 36
1011011101100000 
//Entry 37
1010111110100000 
//Entry 38
0100000001011011 
//Entry 39
1000101101111101 
