//Entry 0
0100101100011111 
//Entry 1
1001011110111100 
//Entry 2
0100111100011110 
//Entry 3
1010000111011111 
//Entry 4
1010100111010111 
//Entry 5
1011110101111101 
//Entry 6
1011111011111110 
//Entry 7
1011111011011101 
//Entry 8
0100011111011011 
//Entry 9
1001010100111100 
//Entry 10
1010011001011111 
//Entry 11
1000110010111101 
//Entry 12
1000010000111101 
//Entry 13
0110100101111101 
//Entry 14
1011100111011111 
//Entry 15
0110000011011010 
//Entry 16
1100000000010111 
//Entry 17
1000110001011111 
//Entry 18
0101101110111110 
//Entry 19
1010111001000001 
//Entry 20
0110100110011111 
//Entry 21
0111011011011110 
//Entry 22
0110110101011011 
//Entry 23
1011100010100000 
//Entry 24
0100100110011100 
//Entry 25
0101011010011000 
//Entry 26
1000111010111100 
//Entry 27
0101010001000000 
//Entry 28
0101001011011101 
//Entry 29
1000111010111101 
//Entry 30
1000110001100000 
//Entry 31
1010000100111101 
//Entry 32
1010011010011100 
//Entry 33
0101000010011101 
//Entry 34
1000011000011101 
//Entry 35
1000100111111101 
//Entry 36
0100001110111101 
//Entry 37
1001110001111001 
//Entry 38
0111010110000001 
//Entry 39
0100101001011110 
//Entry 40
1010000100011100 
//Entry 41
1011101011011100 
//Entry 42
1011000000111000 
//Entry 43
1010101100111110 
//Entry 44
0100101010011110 
//Entry 45
0110000001000000 
//Entry 46
1011100011111110 
//Entry 47
0111100100111111 
//Entry 48
1011101001111110 
//Entry 49
0101101101111100 
